TRT-8205-EntropyCalibration2
in: 3c008889
703: 3c57a222
704: 3cb4aca9
705: 3c57a222
706: 3c57a222
707: 3d00adca
708: 3c658a66
709: 3c658a66
710: 3d21e6c6
711: 3c658a66
712: 3c658a66
713: 3cbebee4
714: 3c658a66
715: 3c658a66
716: 3d4e6a45
(Unnamed Layer* 15) [Shuffle]_output: 3ace7687
718: 3c2521d1
719: 3c0a51d5
720: 3bd0f681
721: 3c0a51d5
722: 3c0a51d5
723: 3c69a761
724: 3c0a51d5
725: 3c0a51d5
726: 3c819bf1
727: 3c11e2b9
728: 3c11e2b9
729: 3cd2dfb2
730: 3c24983f
731: 3c24983f
732: 3ca5a9e3
(Unnamed Layer* 32) [Shuffle]_output: 3ace7687
734: 3b8487e9
735: 3bf0f7dc
736: 3c529e46
737: 3bf0f7dc
738: 3bf0f7dc
739: 3ccd7579
740: 3c64ca6f
741: 3c64ca6f
742: 3d42ece0
743: 3ca735df
744: 3ca735df
745: 3d9359ed
746: 3cfbf269
747: 3cfbf269
748: 3e4c4062
(Unnamed Layer* 49) [Shuffle]_output: 3ace7687
750: 3d2366b4
751: 3d3194af
(Unnamed Layer* 53) [Shuffle]_output: 3ace7687
753: 3c0e108d
754: 3bd9bcd3
755: 3c4a3983
756: 3bd9bcd3
757: 3bd9bcd3
758: 3c89cae9
759: 3bd9bcd3
760: 3bd9bcd3
761: 3c34133a
762: 3bd8a369
763: 3bd8a369
764: 3ca6a616
765: 3bf3ef39
766: 3bf3ef39
767: 3cb8afef
(Unnamed Layer* 70) [Shuffle]_output: 3ace7687
769: 3b93bff2
770: 3bd24e60
771: 3c2935ea
772: 3bd24e60
773: 3bd24e60
774: 3c5ecffe
775: 3bfbc150
776: 3bfbc150
777: 3cd8c428
778: 3c18d7cd
779: 3c18d7cd
780: 3d2da9fb
781: 3c1ce199
782: 3c1ce199
783: 3d0260e0
(Unnamed Layer* 87) [Shuffle]_output: 3ace7687
785: 3bd09aff
786: 3bb569a7
787: 3c5860ee
788: 3bb569a7
789: 3bb569a7
790: 3cb128ff
791: 3bbf3c72
792: 3bbf3c72
793: 3c9fceb4
794: 3bcbd5f1
795: 3bcbd5f1
796: 3d0076fa
797: 3c55c30d
798: 3c55c30d
799: 3d4106f1
(Unnamed Layer* 104) [Shuffle]_output: 3ace7687
801: 3c1a6bf4
802: 3c05d3d8
(Unnamed Layer* 108) [Shuffle]_output: 3ace7687
804: 3ad61fbe
805: 3be7471f
806: 3c64d9fe
807: 3be7471f
808: 3be7471f
809: 3c8616d1
810: 3be7471f
811: 3be7471f
812: 3cd90eea
813: 3c1dd050
814: 3c1dd050
815: 3ceebf8a
816: 3c710f4b
817: 3c710f4b
818: 3d08a15c
(Unnamed Layer* 125) [Shuffle]_output: 3ace7687
820: 3bda9bc7
821: 3be6ec66
822: 3c80a5fc
823: 3be6ec66
824: 3be6ec66
825: 3c9f18fc
826: 3bfe653c
827: 3bfe653c
828: 3d06cbae
829: 3c08be94
830: 3c08be94
831: 3d09fcd1
832: 3c618120
833: 3c618120
834: 3d07ae60
(Unnamed Layer* 142) [Shuffle]_output: 3ace7687
836: 3bd91701
837: 3bfde0e5
838: 3c97cbf4
839: 3bfde0e5
840: 3bfde0e5
841: 3d1c7500
842: 3c08840e
843: 3c08840e
844: 3cef0cad
845: 3c428ff7
846: 3c428ff7
847: 3d6891b0
848: 3c95201f
849: 3c95201f
850: 3d6d1b82
(Unnamed Layer* 159) [Shuffle]_output: 3ace7687
852: 3c3daf9b
853: 3c21f119
(Unnamed Layer* 163) [Shuffle]_output: 3ace7687
855: 3b018dae
856: 3c0d91d1
857: 3c2e9290
858: 3c0d91d1
859: 3c0d91d1
860: 3cbffb01
861: 3c1428d3
862: 3c1428d3
863: 3cc1a2aa
864: 3c186b9a
865: 3c186b9a
866: 3cfbef0d
867: 3c4a67f8
868: 3c4a67f8
869: 3d410084
(Unnamed Layer* 180) [Shuffle]_output: 3ace7687
871: 3c1a66d1
872: 3bfbfce2
873: 3c9541a2
874: 3bfbfce2
875: 3bfbfce2
876: 3cdd6500
877: 3c2916f1
878: 3c2916f1
879: 3d10bc8a
880: 3c22ce67
881: 3c22ce67
882: 3d4a7068
883: 3c8afe27
884: 3c8afe27
885: 3d36f951
(Unnamed Layer* 197) [Shuffle]_output: 3ace7687
887: 3c12610e
888: 3bfa8fee
889: 3c8154ea
890: 3bfa8fee
891: 3bfa8fee
892: 3ca96ce3
893: 3c183cac
894: 3c183cac
895: 3cde3088
896: 3c206e4a
897: 3c206e4a
898: 3d2fe62f
899: 3c206e4a
900: 3c206e4a
901: 3d375ed3
(Unnamed Layer* 214) [Shuffle]_output: 3ace7687
903: 3c12b243
904: 3c0ab869
(Unnamed Layer* 218) [Shuffle]_output: 3ace7687
906: 3addf3db
907: 3be0ed67
908: 3bff06d2
909: 3be0ed67
910: 3be0ed67
911: 3c0b973f
912: 3bd4e7fb
913: 3bd4e7fb
914: 3c4ff107
915: 3bd457ba
916: 3bd457ba
917: 3c8d6e05
918: 3bd87997
919: 3bd87997
920: 3cfab443
(Unnamed Layer* 235) [Shuffle]_output: 3ace7687
922: 3bc89034
923: 3b8eba75
924: 3c0436b0
925: 3b8eba75
926: 3b8eba75
927: 3c516b43
928: 3ba6f29a
929: 3ba6f29a
930: 3c8ea003
931: 3be6b90b
932: 3be6b90b
933: 3d27f53a
934: 3c1bfbb0
935: 3c1bfbb0
936: 3cb5bde3
(Unnamed Layer* 252) [Shuffle]_output: 3ace7687
938: 3b9164b5
939: 3ba4d669
940: 3c294958
941: 3ba4d669
942: 3ba4d669
943: 3c4ae5be
944: 3bad5b39
945: 3bad5b39
946: 3caa498d
947: 3bdcb03e
948: 3bdcb03e
949: 3cfc043d
950: 3c107c49
951: 3c107c49
952: 3d0c51a6
(Unnamed Layer* 269) [Shuffle]_output: 3ace7687
954: 3be082a3
955: 3be497bd
(Unnamed Layer* 273) [Shuffle]_output: 3ace7687
957: 3ab6dfcc
958: 3bebea69
959: 3c129c00
960: 3bebea69
961: 3bebea69
962: 3c5a4079
963: 3bebea69
964: 3bebea69
965: 3c62a762
966: 3bec7c9a
967: 3bec7c9a
968: 3cb58419
969: 3bf07918
970: 3bf07918
971: 3d11081d
(Unnamed Layer* 290) [Shuffle]_output: 3ace7687
973: 3be80cfc
974: 3b85496f
975: 3c0ca4bc
976: 3b85496f
977: 3b85496f
978: 3c28cc4d
979: 3b8d5853
980: 3b8d5853
981: 3c6a48f9
982: 3b91f934
983: 3b91f934
984: 3c916561
985: 3c098eec
986: 3c098eec
987: 3cb3a185
(Unnamed Layer* 307) [Shuffle]_output: 3ace7687
989: 3b8fb46b
990: 3bd9c5b2
991: 3c57edd6
992: 3bd9c5b2
993: 3bd9c5b2
994: 3c9249fd
995: 3bf53272
996: 3bf53272
997: 3d158254
998: 3c131050
999: 3c131050
1000: 3cf3bd9f
1001: 3c1596e3
1002: 3c1596e3
1003: 3cfea23e
(Unnamed Layer* 324) [Shuffle]_output: 3ace7687
1005: 3bcbb4ff
1006: 3bcc08d3
(Unnamed Layer* 328) [Shuffle]_output: 3ace7687
1008: 3aa33a43
1009: 3be91f43
1010: 3bedcc6d
1011: 3be91f43
1012: 3be91f43
1013: 3c50d127
1014: 3be25b56
1015: 3be25b56
1016: 3c9514b3
1017: 3bfb29ba
1018: 3bfb29ba
1019: 3c9f07a7
1020: 3c0b2726
1021: 3c0b2726
1022: 3d0127f7
(Unnamed Layer* 345) [Shuffle]_output: 3ace7687
1024: 3bcea659
1025: 3ba824bb
1026: 3c0c820f
1027: 3ba824bb
1028: 3ba824bb
1029: 3c4a4376
1030: 3bb505d4
1031: 3bb505d4
1032: 3c761e8b
1033: 3c2586c4
1034: 3c2586c4
1035: 3c94438f
1036: 3c25ea46
1037: 3c25ea46
1038: 3cb4d62c
(Unnamed Layer* 362) [Shuffle]_output: 3ace7687
1040: 3b90ab57
1041: 3be10959
1042: 3c7f6c46
1043: 3be10959
1044: 3be10959
1045: 3c99b9cb
1046: 3c00b0a8
1047: 3c00b0a8
1048: 3cdbb906
1049: 3c1fd069
1050: 3c1fd069
1051: 3d172213
1052: 3c65b32d
1053: 3c65b32d
1054: 3d28bf7f
(Unnamed Layer* 379) [Shuffle]_output: 3ace7687
1056: 3c06ff98
1057: 3c05989f
(Unnamed Layer* 383) [Shuffle]_output: 3ace7687
1059: 3ad5c100
1060: 3c011444
1061: 3c6964d6
1062: 3c011444
1063: 3c011444
1064: 3c6dfea2
1065: 3bfdb733
1066: 3bfdb733
1067: 3cd82a6c
1068: 3c03fdad
1069: 3c03fdad
1070: 3d0ba5d3
1071: 3c05b457
1072: 3c05b457
1073: 3d00f81a
(Unnamed Layer* 400) [Shuffle]_output: 3ace7687
1075: 3bce59c3
1076: 3bbfabb1
1077: 3c4f8d85
1078: 3bbfabb1
1079: 3bbfabb1
1080: 3c701d1f
1081: 3bbf3c61
1082: 3bbf3c61
1083: 3cbd0de1
1084: 3beb86f8
1085: 3beb86f8
1086: 3d00a5e8
1087: 3c0aea93
1088: 3c0aea93
1089: 3cfb0e99
(Unnamed Layer* 417) [Shuffle]_output: 3ace7687
1091: 3bc8d87b
1092: 3bc1683d
1093: 3c34f54f
1094: 3bc1683d
1095: 3bc1683d
1096: 3c811f82
1097: 3bc39764
1098: 3bc39764
1099: 3ca0ea60
1100: 3bdb03b9
1101: 3bdb03b9
1102: 3cc9cbe3
1103: 3bf15a75
1104: 3bf15a75
1105: 3cf3faf3
(Unnamed Layer* 434) [Shuffle]_output: 3ace7687
1107: 3bc32f29
1108: 3bb3d72d
(Unnamed Layer* 438) [Shuffle]_output: 3ace7687
1110: 3a8fdf58
1111: 3c020597
1112: 3c4a1c17
1113: 3c020597
1114: 3c020597
1115: 3c8b88a8
1116: 3c237b55
1117: 3c237b55
1118: 3cacf618
1119: 3c2761fe
1120: 3c2761fe
1121: 3cff1020
1122: 3c83c07e
1123: 3c83c07e
1124: 3d5eed05
(Unnamed Layer* 455) [Shuffle]_output: 3ace7687
1126: 3c325737
1127: 3c4a201a
1128: 3c954df1
1129: 3c4a201a
1130: 3c4a201a
1131: 3cc64583
1132: 3c49ebf3
1133: 3c49ebf3
1134: 3d135cd5
1135: 3c507f8d
1136: 3c507f8d
1137: 3d523120
1138: 3c7cdb5a
1139: 3c7cdb5a
1140: 3d36d5d6
(Unnamed Layer* 472) [Shuffle]_output: 3ace7687
1142: 3c1244aa
1143: 3c14c43d
1144: 3c826fb6
1145: 3c14c43d
1146: 3c14c43d
1147: 3ca26a9d
1148: 3c153d85
1149: 3c153d85
1150: 3d04eeae
1151: 3c1f2b5d
1152: 3c1f2b5d
1153: 3d238e6e
1154: 3c43a006
1155: 3c43a006
1156: 3d43cdc4
(Unnamed Layer* 489) [Shuffle]_output: 3ace7687
1158: 3c1ca49c
1159: 3bf87aa1
(Unnamed Layer* 493) [Shuffle]_output: 3ace7687
1161: 3ac6c881
1162: 3c05a9dd
1163: 3c46e779
1164: 3c05a9dd
1165: 3c05a9dd
1166: 3c95e2a4
1167: 3c00c8be
1168: 3c00c8be
1169: 3cc8298d
1170: 3c19ecf0
1171: 3c19ecf0
1172: 3d047786
1173: 3c80c635
1174: 3c80c635
1175: 3d288730
(Unnamed Layer* 510) [Shuffle]_output: 3ace7687
1177: 3c06d28d
1178: 3c079232
1179: 3c5a6389
1180: 3c079232
1181: 3c079232
1182: 3c822289
1183: 3c036026
1184: 3c036026
1185: 3cc1ac71
1186: 3c3095e5
1187: 3c3095e5
1188: 3d01c7ba
1189: 3c41f162
1190: 3c41f162
1191: 3cdc04ba
(Unnamed Layer* 527) [Shuffle]_output: 3ace7687
1193: 3bb003c8
1194: 3c3e429d
1195: 3cbef36e
1196: 3c3e429d
1197: 3c3e429d
1198: 3ccf2c6d
1199: 3c3f4ddc
1200: 3c3f4ddc
1201: 3ceeb5cc
1202: 3c5baeaf
1203: 3c5baeaf
1204: 3d1f92ca
1205: 3c7b396d
1206: 3c7b396d
1207: 3d41253d
(Unnamed Layer* 544) [Shuffle]_output: 3ace7687
1209: 3c1a8432
1210: 3c09ebe6
(Unnamed Layer* 548) [Shuffle]_output: 3ace7687
1212: 3adcaca3
1213: 3c01d390
1214: 3c31fff6
1215: 3c01d390
1216: 3c01d390
1217: 3d060d07
1218: 3c0512ca
1219: 3c0512ca
1220: 3ce35b70
1221: 3c4918a4
1222: 3c4918a4
1223: 3d341341
1224: 3c54ba51
1225: 3c54ba51
1226: 3d198766
(Unnamed Layer* 565) [Shuffle]_output: 3ace7687
1228: 3bf5a570
1229: 3c0607cc
1230: 3c8d4478
1231: 3c0607cc
1232: 3c0607cc
1233: 3caf4fcb
1234: 3c1fe6c8
1235: 3c1fe6c8
1236: 3cc8fa97
1237: 3c2efba9
1238: 3c2efba9
1239: 3d0d4f49
1240: 3c934497
1241: 3c934497
1242: 3d05b1ed
(Unnamed Layer* 582) [Shuffle]_output: 3ace7687
1244: 3bd5e97b
1245: 3bde9122
1246: 3c6c2d8d
1247: 3bde9122
1248: 3bde9122
1249: 3c82c738
1250: 3bd5427d
1251: 3bd5427d
1252: 3cad18b7
1253: 3c2ac28e
1254: 3c2ac28e
1255: 3ce5e91f
1256: 3c3c366c
1257: 3c3c366c
1258: 3d13b24a
(Unnamed Layer* 599) [Shuffle]_output: 3ace7687
1260: 3bec5075
1261: 3bd8f1ea
(Unnamed Layer* 603) [Shuffle]_output: 3ace7687
1263: 3aad8e55
1264: 3c2ba722
1265: 3c786a7d
1266: 3c2ba722
1267: 3c2ba722
1268: 3cc92696
1269: 3c436637
1270: 3c436637
1271: 3d0fa946
1272: 3c81e7ba
1273: 3c81e7ba
1274: 3d85996d
1275: 3ce8cd8e
1276: 3ce8cd8e
1277: 3d3c7f96
(Unnamed Layer* 620) [Shuffle]_output: 3ace7687
1279: 3c16cc78
1280: 3c425943
1281: 3ccf23bd
1282: 3c425943
1283: 3c425943
1284: 3d0299a2
1285: 3c49113f
1286: 3c49113f
1287: 3d37c76f
1288: 3c84401a
1289: 3c84401a
1290: 3d6dc829
1291: 3ca2ad68
1292: 3ca2ad68
1293: 3d618cde
(Unnamed Layer* 637) [Shuffle]_output: 3ace7687
1295: 3c3470b2
1296: 3c400e43
1297: 3ceabce3
1298: 3c400e43
1299: 3c400e43
1300: 3d00d10e
1301: 3c4b208f
1302: 3c4b208f
1303: 3d3bc428
1304: 3c99f12d
1305: 3c99f12d
1306: 3db48f2e
1307: 3cfab287
1308: 3cfab287
1309: 3d9452c8
(Unnamed Layer* 654) [Shuffle]_output: 3ace7687
1311: 3c6d513f
1312: 3c55890d
(Unnamed Layer* 658) [Shuffle]_output: 3ace7687
1314: 3b2ad40b
1315: 3c227b33
1316: 3c7986c8
1317: 3c227b33
1318: 3c227b33
1319: 3c6dd76b
1320: 3c12db4f
1321: 3c12db4f
1322: 3ccd896b
1323: 3c4ec9f6
1324: 3c4ec9f6
1325: 3ce2e1c4
1326: 3c855ef2
1327: 3c855ef2
1328: 3d4e511a
(Unnamed Layer* 675) [Shuffle]_output: 3ace7687
1330: 3c250daf
1331: 3bcb18c8
1332: 3c38d33a
1333: 3bcb18c8
1334: 3bcb18c8
1335: 3c44fd61
1336: 3bcddc5c
1337: 3bcddc5c
1338: 3c773411
1339: 3c0d9fcc
1340: 3c0d9fcc
1341: 3cc5b64c
1342: 3c4847a0
1343: 3c4847a0
1344: 3d0463f6
(Unnamed Layer* 692) [Shuffle]_output: 3ace7687
1346: 3bd3d324
1347: 3c0611d1
1348: 3c8e6c13
1349: 3c0611d1
1350: 3c0611d1
1351: 3cc747e7
1352: 3c2b8aed
1353: 3c2b8aed
1354: 3d137d63
1355: 3c6a225b
1356: 3c6a225b
1357: 3d49a67b
1358: 3c8a6944
1359: 3c8a6944
1360: 3d408010
(Unnamed Layer* 709) [Shuffle]_output: 3ace7687
1362: 3c1a000d
1363: 3c263bce
(Unnamed Layer* 713) [Shuffle]_output: 3ace7687
1365: 3b04fca5
1366: 3c39581b
1367: 3cca8144
1368: 3c39581b
1369: 3c39581b
1370: 3cdf321e
1371: 3c435158
1372: 3c435158
1373: 3d3fd66d
1374: 3c9026cf
1375: 3c9026cf
1376: 3d563bfb
1377: 3c92810d
1378: 3c92810d
1379: 3d4573c3
(Unnamed Layer* 730) [Shuffle]_output: 3ace7687
1381: 3c1df634
1382: 3c5746a4
1383: 3cd6e2ac
1384: 3c5746a4
1385: 3c5746a4
1386: 3cd5dbd0
1387: 3c50a153
1388: 3c50a153
1389: 3cfb1cd6
1390: 3ca94c37
1391: 3ca94c37
1392: 3d5f6b0f
1393: 3cd1f4e9
1394: 3cd1f4e9
1395: 3d3a84a0
(Unnamed Layer* 747) [Shuffle]_output: 3ace7687
1397: 3c1536e7
1398: 3c564eba
1399: 3ce5ea86
1400: 3c564eba
1401: 3c564eba
1402: 3d2e1f1c
1403: 3c94b3b4
1404: 3c94b3b4
1405: 3d6acd91
1406: 3cbbb224
1407: 3cbbb224
1408: 3d6b7b51
1409: 3cbbb224
1410: 3cbbb224
1411: 3d908c71
(Unnamed Layer* 764) [Shuffle]_output: 3ace7687
1413: 3c67471b
1414: 3c36508b
(Unnamed Layer* 768) [Shuffle]_output: 3ace7687
1416: 3b11da09
1417: 3c2ebf96
1418: 3c86f003
1419: 3c2ebf96
1420: 3c2ebf96
1421: 3cb70b0d
1422: 3c6645e7
1423: 3c6645e7
1424: 3ce9954e
1425: 3c64da76
1426: 3c64da76
1427: 3d3c6896
1428: 3c7d16e0
1429: 3c7d16e0
1430: 3d5d6338
(Unnamed Layer* 785) [Shuffle]_output: 3ace7687
1432: 3c311c2d
1433: 3c1e8f1b
1434: 3c84bdca
1435: 3c1e8f1b
1436: 3c1e8f1b
1437: 3ceeb0e1
1438: 3c390da6
1439: 3c390da6
1440: 3cf9d994
1441: 3c59d2f5
1442: 3c59d2f5
1443: 3d42fe7a
1444: 3c90d859
1445: 3c90d859
1446: 3d22a09d
(Unnamed Layer* 802) [Shuffle]_output: 3ace7687
1448: 3c021a17
1449: 3c3a0dfd
1450: 3cb8e3dc
1451: 3c3a0dfd
1452: 3c3a0dfd
1453: 3cf23633
1454: 3c634470
1455: 3c634470
1456: 3d21ea0a
1457: 3c90ac4d
1458: 3c90ac4d
1459: 3d8351cf
1460: 3cc54a9d
1461: 3cc54a9d
1462: 3d699237
(Unnamed Layer* 819) [Shuffle]_output: 3ace7687
1464: 3c3adb60
1465: 3c3b5643
(Unnamed Layer* 823) [Shuffle]_output: 3ace7687
1467: 3b15de9c
1468: 3c2a4d28
1469: 3c5ce620
1470: 3c2a4d28
1471: 3c2a4d28
1472: 3cac4ac6
1473: 3c68e787
1474: 3c68e787
1475: 3d144cb7
1476: 3c68d7fe
1477: 3c68d7fe
1478: 3d437876
1479: 3c74792e
1480: 3c74792e
1481: 3d47ebf3
(Unnamed Layer* 840) [Shuffle]_output: 3ace7687
1483: 3c1eaaa7
1484: 3c2ea4e9
1485: 3c9722e3
1486: 3c2ea4e9
1487: 3c2ea4e9
1488: 3cc8a95c
1489: 3c351688
1490: 3c351688
1491: 3d03fa50
1492: 3c9da595
1493: 3c9da595
1494: 3d406a69
1495: 3ca239c9
1496: 3ca239c9
1497: 3d15976b
(Unnamed Layer* 857) [Shuffle]_output: 3ace7687
1499: 3bef58ab
1500: 3c2ad47e
1501: 3ca11b39
1502: 3c2ad47e
1503: 3c2ad47e
1504: 3cd389ff
1505: 3c2aa267
1506: 3c2aa267
1507: 3d0922f7
1508: 3c68ec14
1509: 3c68ec14
1510: 3d3ab368
1511: 3cc43760
1512: 3cc43760
1513: 3d671bfa
(Unnamed Layer* 874) [Shuffle]_output: 3ace7687
1515: 3c38e32e
1516: 3c319f17
(Unnamed Layer* 878) [Shuffle]_output: 3ace7687
1518: 3b0e18df
1519: 3c7063f6
1520: 3d21bbe3
1521: 3c7063f6
1522: 3c7063f6
1523: 3d54c509
1524: 3c749dfb
1525: 3c749dfb
1526: 3d451d2c
1527: 3cd70308
1528: 3cd70308
1529: 3db30932
1530: 3d0e93b4
1531: 3d0e93b4
1532: 3dae0c9f
(Unnamed Layer* 895) [Shuffle]_output: 3ace7687
1534: 3c8b3d4d
1535: 3ca73ab2
1536: 3d056b8f
1537: 3ca73ab2
1538: 3ca73ab2
1539: 3d206f7c
1540: 3c980832
1541: 3c980832
1542: 3d4a295a
1543: 3ca71130
1544: 3ca71130
1545: 3d9dc87a
1546: 3cccdd2d
1547: 3cccdd2d
1548: 3d88c3b0
(Unnamed Layer* 912) [Shuffle]_output: 3ace7687
1550: 3c5ad2b4
1551: 3c74303e
1552: 3d095db4
1553: 3c74303e
1554: 3c74303e
1555: 3d34afec
1556: 3cc118cd
1557: 3cc118cd
1558: 3d8d672d
1559: 3d0d391e
1560: 3d0d391e
1561: 3ddb54f4
1562: 3d1eddbd
1563: 3d1eddbd
1564: 3dd924ce
(Unnamed Layer* 929) [Shuffle]_output: 3ace7687
1566: 3cadb70b
1567: 3cd40f46
(Unnamed Layer* 933) [Shuffle]_output: 3ace7687
1569: 3ba9a5d1
1570: 3c64488e
1571: 3cd0d3f6
1572: 3c64488e
1573: 3c64488e
1574: 3d0e4ef8
1575: 3c641291
1576: 3c641291
1577: 3d44da6d
1578: 3cb5d269
1579: 3cb5d269
1580: 3d9d3f86
1581: 3cbcf2ea
1582: 3cbcf2ea
1583: 3da583cc
(Unnamed Layer* 950) [Shuffle]_output: 3ace7687
1585: 3c846970
1586: 3c75c52a
1587: 3d283eae
1588: 3c75c52a
1589: 3c75c52a
1590: 3d175832
1591: 3c825721
1592: 3c825721
1593: 3d37e2b5
1594: 3c860dc3
1595: 3c860dc3
1596: 3d9aa851
1597: 3caf412c
1598: 3caf412c
1599: 3d9a9650
(Unnamed Layer* 967) [Shuffle]_output: 3ace7687
1601: 3c7756e5
1602: 3cd51ccc
1603: 3d91187f
1604: 3cd51ccc
1605: 3cd51ccc
1606: 3dd87477
1607: 3d0b18d8
1608: 3d0b18d8
1609: 3e063289
1610: 3d2a397c
1611: 3d2a397c
1612: 3e0634e4
1613: 3d4a21d5
1614: 3d4a21d5
1615: 3e185ca6
(Unnamed Layer* 984) [Shuffle]_output: 3ace7687
1617: 3cf3c771
1618: 3cfb695e
(Unnamed Layer* 988) [Shuffle]_output: 3ace7687
1620: 3bc92118
1621: 3c5d6355
1622: 3cb5e4d6
1623: 3c5d6355
1624: 3c5d6355
1625: 3cf9758d
1626: 3c583787
1627: 3c583787
1628: 3d0596bd
1629: 3c7698df
1630: 3c7698df
1631: 3d397ff4
1632: 3c861dd8
1633: 3c861dd8
1634: 3da51110
(Unnamed Layer* 1005) [Shuffle]_output: 3ace7687
1636: 3c840da6
1637: 3c3044fc
1638: 3cc87b1d
1639: 3c3044fc
1640: 3c3044fc
1641: 3d0613cd
1642: 3c3dbd07
1643: 3c3dbd07
1644: 3d14ceab
1645: 3c4ff165
1646: 3c4ff165
1647: 3d595acb
1648: 3c70ad8b
1649: 3c70ad8b
1650: 3d62e1b5
(Unnamed Layer* 1022) [Shuffle]_output: 3ace7687
1652: 3c35815e
1653: 3c417d4a
1654: 3cd7753b
1655: 3c417d4a
1656: 3c417d4a
1657: 3cfd8529
1658: 3c47acb4
1659: 3c47acb4
1660: 3d45e34b
1661: 3c695994
1662: 3c695994
1663: 3d9eeae0
1664: 3c92496a
1665: 3c92496a
1666: 3dd55a4b
(Unnamed Layer* 1039) [Shuffle]_output: 3ace7687
1668: 3caaaea2
1669: 3ca5b157
(Unnamed Layer* 1043) [Shuffle]_output: 3ace7687
1671: 3b848de0
1672: 3c5ce091
1673: 3c9dc670
1674: 3c5ce091
1675: 3c5ce091
1676: 3d1e83ba
1677: 3c5ce091
1678: 3c5ce091
1679: 3d448205
1680: 3c82c44a
1681: 3c82c44a
1682: 3d7dd8e0
1683: 3c9e1b85
1684: 3c9e1b85
1685: 3db1ddea
(Unnamed Layer* 1060) [Shuffle]_output: 3ace7687
1687: 3c8e4b21
1688: 3c32509f
1689: 3ccf2167
1690: 3c32509f
1691: 3c32509f
1692: 3d1e34a3
1693: 3c6fa40a
1694: 3c6fa40a
1695: 3d5073af
1696: 3c6fa40a
1697: 3c6fa40a
1698: 3d8eeb81
1699: 3cc5af8a
1700: 3cc5af8a
1701: 3d7e563f
(Unnamed Layer* 1077) [Shuffle]_output: 3ace7687
1703: 3c4b7833
1704: 3c6371dc
1705: 3d081392
1706: 3c6371dc
1707: 3c6371dc
1708: 3d38d6e4
1709: 3cb34e39
1710: 3cb34e39
1711: 3d651fcb
1712: 3ce5016b
1713: 3ce5016b
1714: 3d7a43ca
1715: 3ce5016b
1716: 3ce5016b
1717: 3d94bec7
(Unnamed Layer* 1094) [Shuffle]_output: 3ace7687
1719: 3c6dfe0a
1720: 3c566b65
(Unnamed Layer* 1098) [Shuffle]_output: 3ace7687
1722: 3b2b891e
1723: 3c61ddaa
1724: 3c9bed19
1725: 3c61ddaa
1726: 3c61ddaa
1727: 3cfbb245
1728: 3c4dd7bb
1729: 3c4dd7bb
1730: 3d062bef
1731: 3c98fab3
1732: 3c98fab3
1733: 3d8c2bc5
1734: 3c9e6bc9
1735: 3c9e6bc9
1736: 3db6b009
(Unnamed Layer* 1115) [Shuffle]_output: 3ace7687
1738: 3c92266e
1739: 3c2a1549
1740: 3cbca305
1741: 3c2a1549
1742: 3c2a1549
1743: 3cebddc3
1744: 3c66e888
1745: 3c66e888
1746: 3d54c0aa
1747: 3c8b24fd
1748: 3c8b24fd
1749: 3d76d95c
1750: 3c9ca7e5
1751: 3c9ca7e5
1752: 3d707458
(Unnamed Layer* 1132) [Shuffle]_output: 3ace7687
1754: 3c405d12
1755: 3c2fbd06
1756: 3ccc3cae
1757: 3c2fbd06
1758: 3c2fbd06
1759: 3d03c475
1760: 3c2bf45f
1761: 3c2bf45f
1762: 3d310853
1763: 3c47742c
1764: 3c47742c
1765: 3d5e095b
1766: 3c6b3077
1767: 3c6b3077
1768: 3d98e473
(Unnamed Layer* 1149) [Shuffle]_output: 3ace7687
1770: 3c74a0b9
1771: 3c44d5d2
(Unnamed Layer* 1153) [Shuffle]_output: 3ace7687
1773: 3b1d77db
1774: 3c611c8c
1775: 3c8c3fc2
1776: 3c611c8c
1777: 3c611c8c
1778: 3ce3b9cf
1779: 3c6154cc
1780: 3c6154cc
1781: 3d3970ac
1782: 3ca97e67
1783: 3ca97e67
1784: 3d767c02
1785: 3cc8ae9a
1786: 3cc8ae9a
1787: 3dbbe143
(Unnamed Layer* 1170) [Shuffle]_output: 3ace7687
1789: 3c964dcf
1790: 3c5dcee0
1791: 3d1b1335
1792: 3c5dcee0
1793: 3c5dcee0
1794: 3d2e5589
1795: 3caebcb5
1796: 3caebcb5
1797: 3d71d97f
1798: 3cd86714
1799: 3cd86714
1800: 3db6ec31
1801: 3ceb95d1
1802: 3ceb95d1
1803: 3d9cedca
(Unnamed Layer* 1187) [Shuffle]_output: 3ace7687
1805: 3c7b1610
1806: 3c9e22c8
1807: 3d155a2a
1808: 3c9e22c8
1809: 3c9e22c8
1810: 3d5bd823
1811: 3c9fb859
1812: 3c9fb859
1813: 3da6b8b7
1814: 3d000891
1815: 3d000891
1816: 3dec512d
1817: 3d35bd43
1818: 3d35bd43
1819: 3ddabc48
(Unnamed Layer* 1204) [Shuffle]_output: 3ace7687
1821: 3caefd06
1822: 3c9ebd30
(Unnamed Layer* 1208) [Shuffle]_output: 3ace7687
1824: 3b7dfb81
1825: 3c68ad73
1826: 3cd793d4
1827: 3c68ad73
1828: 3c68ad73
1829: 3d276e0c
1830: 3c9e58a0
1831: 3c9e58a0
1832: 3d8aceb2
1833: 3ce74ab4
1834: 3ce74ab4
1835: 3decebda
1836: 3d37b5cd
1837: 3d37b5cd
1838: 3de36ab7
(Unnamed Layer* 1225) [Shuffle]_output: 3ace7687
1840: 3cb5eefa
1841: 3d0c9ab4
1842: 3d6b4f9e
1843: 3d0c9ab4
1844: 3d0c9ab4
1845: 3da05bab
1846: 3d2f9995
1847: 3d2f9995
1848: 3de8af4b
1849: 3d78d4e2
1850: 3d78d4e2
1851: 3e205ee0
1852: 3d814298
1853: 3d814298
1854: 3e098b35
(Unnamed Layer* 1242) [Shuffle]_output: 3ace7687
1856: 3cdc11f0
1857: 3d3b67c6
1858: 3da8bab9
1859: 3d3b67c6
1860: 3d3b67c6
1861: 3e020800
1862: 3d783817
1863: 3d783817
1864: 3e3597f1
1865: 3daf157c
1866: 3daf157c
1867: 3e848d81
1868: 3ddd1a5c
1869: 3ddd1a5c
1870: 3e6ff98c
(Unnamed Layer* 1259) [Shuffle]_output: 3ace7687
1872: 3d3ffad7
1873: 3d305bb3
(Unnamed Layer* 1263) [Shuffle]_output: 3ace7687
1875: 3c0d1629
1876: 3c95a913
1877: 3c74417e
1878: 3c87dc63
1883: 3c87dc63
1884: 3cd6b4d1
1885: 3ca86161
1890: 3ca86161
1891: 3db4a245
1892: 3cccf2f0
1893: 3d68b77b
1894: 3d0c5b55
out: 3c410053
